memory_initialization_radix = 10;
memory_initialization_vector = 
0,
0,
2,
0,
0,
0,
2,
0,
0,
0,
0,
0,
0,
0,
0,
0,
0,
2,
0,
0,
0,
2,
0,
2,
0,
0,
0,
0,
0,
2,
2,
2,
2,
0,
2,
0,
0,
0,
0,
0,
0,
0,
0,
2,
0,
0,
2,
0,
0,
2,
0,
0,
0,
2,
2,
0,
0,
0,
0,
0,
0,
0;
