memory_initialization_radix = 2;
memory_initialization_vector = 
1111111111111111111111,
1111111111111111111111,
1111111111111111111111,
1111111111111111111111,
1111111111111111111111,
1111111111111111111111,
1111111111111111111111,
1111111111111111111111,
1111111111111111111111,
1111111111111111111111,
1111111111111111111111,
1111111111111111111111,
1111111111111111111111,
1111111111111111111111,
1111111111111111111111,
1111111111111111111111,
1111111111111111111111,
1111111111111111111111,
1111111111111111111111,
1111111111111111111111,
1111111111111111111111,
1111111111111111111111,
1111111111111111111111,
1111111111111111111111,
1111111111111111111111,
1111111111111111111111,
1111111111111111111111,
1111111111111111111111,
1111111111111111111111,
1111111111111111111111,
1111111111111111111111,
1111111111111111111111,
1111111111111111111111,
1111111111111111111111,
1111111111111111111111,
1111111111111111111111,
1111111111111111111111,
1111111111111111111111,
1111111111111111111111,
1111111111111111111111,
1111111111111111111111,
1111111111111111111111,
1111111111111111111111,
1111111111111111111111,
1111111111111111111111,
1111111111111111111111,
1111111111111111111111,
1111111111111111111111,
1111111111111111111111,
1111111111111111111111,
1111111111111111111111,
1111111111111111111111,
1111111111111111111111,
1111111111111111111111,
1111111111111111111111,
1111111111111111111111,
1111111111111111111111,
1111111111111111111111,
1111111111111111111111,
1111111111111111111111,
1111111111111111111111,
1111111111111111111111;
