memory_initialization_radix = 10;
memory_initialization_vector = 
2,
2,
2,
2,
3,
2,
2,
2,
2,
3,
2,
3,
2,
3,
3,
2,
2,
2,
2,
3,
2,
2,
2,
2,
2,
3,
3,
2,
3,
2,
2,
2,
2,
3,
2,
2,
3,
2,
2,
3,
2,
3,
3,
2,
2,
2,
2,
3,
2,
2,
3,
3,
3,
2,
2,
3,
3,
3,
2,
2,
3,
2;
